-0.8190868257747292,1.335439874647798,-0.0713962088971319,-0.676693261428766,0.7017397380949849,-0.9534032840868615,0.46644601165839794,0.31313115222870525,-0.8733255923634716,-0.2431863011350947,-0.15531683831695084,-0.8643223835226227,0.9205839740888208,-0.7156716486449757,-0.579624180909633,0.5076378749989725,-0.011251281399589246,-0.06476045679579168
-0.818081318901485,-0.024083680000142212,-0.5773380066698185,0.0912267625953622,1.521676111023897,-0.28876349189425154,0.53810515314092,-0.39355834807942286,0.29854904011660155,-0.012696559092801001,0.658381672033631,-0.029784115525074723,-0.5745623752524219,-0.6272476631369989,-0.812911027913633,-0.38940085568621174,-0.2086464978597131,-0.6281241575410079
0.5718549211433004,-0.33571601579191784,-0.21228874430818687,0.14682268772856535,-0.37912200016253594,0.2672642290990809,-0.26484334342915117,-0.485423965946246,-0.01651016664800511,-0.2924360961370834,-0.4014593811264373,0.5099150268438406,-0.5511768169989149,-0.2288904521829308,0.18151625099480612,-0.2806652453286808,0.029575904979208336,0.2734892666311174
0.7563645089259953,0.8890774422762202,-0.24278428674415667,-1.1735662203294364,-0.2710657725805775,-0.4847967737985395,-0.21703696550798268,1.2699070360153244,0.7905065268922266,-0.8023811844616573,0.19158060981245015,-1.2643806708584833,-0.7636145840538147,0.31949511240904443,-0.021075559947227037,1.35657325521991,-0.7969335196695354,-0.7422424450155504
-0.11566427808267388,-0.12919563235447618,-0.09602845414322747,0.3694288786126061,0.3261677676165604,-0.18644294418673257,-0.4255191136863298,-0.4710593090483831,0.47427291185311204,-0.3504043913712811,-0.3159893669186997,-0.46633814175754684,-0.018060291803136397,-0.15504350980520798,-0.00056799874090252,-0.42046351873484833,0.2546311939385226,0.4294700459499259
-0.903892395500941,-0.7361230726188008,1.0637876049731658,0.8452487054291236,-0.9283883184243467,0.05235386766331292,0.05076838815752585,-0.5063508472800171,-0.7073764780701445,0.3910976627733638,-0.728869865050495,-0.7615213435900982,0.6531771881307779,1.24059715584209,-0.016937427878605034,-0.7228823129794668,-1.2144811049687307,0.7244425768355611
0.04456008448270343,1.4210505243297138,-1.330422525912465,-0.5851340021141934,-0.03073467358694318,0.2685771674624133,-1.8408590539207406,2.364954690828251,0.1569280287663931,-1.2529817525406468,0.00364882642002168,-0.8029300718586991,-0.20195946556741434,-0.7526667926902791,0.17919777207454357,-0.5907668806444404,-0.4508620005671738,0.6605621831156179
0.6236651133621219,0.25983582227717694,0.23376163916209608,-0.6673172369401402,0.49664198424361083,-1.5475971133206032,-0.1013510097004872,-0.40859827891384437,-0.5322226020804857,-0.12704285171115223,-0.6911508159305123,1.7306975938531086,-0.36665915627989376,-1.3890075287430705,-0.35510280108498365,-0.2641938989301065,1.5742014532134594,0.5254420575415377
0.4417079337458192,-1.091214125762982,-0.2617320713933454,-0.09150862850811776,-0.5439367331605156,0.06111469344426417,-0.1891803870560597,-0.855700262564579,0.307003627170035,-0.04636627804777419,0.016506132017951522,0.7071730165087192,-0.41345143995768613,0.3220199970572735,0.1894039351472837,0.17224575238645157,0.3145874412927965,-0.052042625634356875
-0.8931121327295636,0.7849480393313323,-0.01444336555508921,-1.0511620089882352,-0.12472646703067974,0.8837040142481043,0.020967407274597852,0.21733748479703974,-0.6168657783157921,-0.1131774570837478,0.5645420974574571,-1.835942346969307,0.08221163553007918,0.9098551650965195,-0.01605875136964263,0.8705963379094678,-1.7881926221288509,-0.8068829955296836
-1.3586598985667753,0.160537981822323,2.2093194158332325,-1.469800327122283,0.03954693762064457,-1.7461192393316862,1.0626897418284134,-1.6019061553468459,-2.890763361936451,1.6590099634461664,-1.3249450355198982,-0.7469903426556417,1.9119008292702466,-0.1390903600959693,-0.04707247219678008,1.1842302364711748,-0.03094442418490881,-0.11981915651710649
0.07455796721574477,-0.5433253538767139,-0.0775704227854708,-0.164489454746819,-0.002133242446757221,0.17676374006621343,-0.10706042011890832,-0.00253038245393338,0.3682882028011338,-0.2989833582964165,-0.6151986960721618,-0.0507908868396549,0.26418829391432114,0.6250131249691345,0.29219640052084056,0.09150018871780309,0.19939294554917825,0.42853838192774696
-1.2390841550665128,0.0397936140512526,-0.06397405142661544,-0.1151910660300582,1.0931362802641598,1.3196885702857069,0.25990359248491113,-0.2757695687003892,0.7842485493206461,-0.13399527920405616,0.9838183546229196,-1.6437048066858415,0.0744300251995556,1.3195391801529877,-0.7979971403665542,0.205889289302252,-1.1853850112532385,-0.8958113472090072
-0.35374252549597607,-0.2763348744120371,0.3483575715149726,-0.46631633769379466,-0.2318470161236923,-0.23336866270667256,0.15327309655938048,0.30807185515534274,0.41911605670645957,0.21554437709932617,0.401104682955127,0.03815215380875481,-0.12664992716803536,-0.07045538251149674,-0.04142061736224589,0.1655598285764347,-0.46131184480852505,0.1848751768103195
0.6173949180989005,0.20179537692891342,-0.09940196499531102,0.8663433530177631,-1.0217293458025238,0.5839537780995332,-1.9478706890015183,0.7672963726839375,0.20857107619405307,-0.3147043953318188,-0.7082255873514086,0.8041421937077282,0.022027612568002262,-0.6076999864427984,0.3791060358787939,-0.8454715204788962,-0.03090922739156378,1.5331097641485045
-0.7526810939779174,-0.38398424276863413,-0.31808913119401655,0.35616456289030485,1.5378878242055247,-0.0536764178857088,0.24048723222428814,0.023871994532274156,0.4812970597786258,0.2692739346392439,0.9332217704818567,0.2088839857836103,-0.6057510013171173,-0.6889343308770056,-1.5129099719021006,-1.2644631273118438,0.4541686643198714,-0.42296642511314014
-0.4548350410360166,0.27893557463354474,0.11028451406288169,-0.04226441017462613,1.2173116154101127,-0.7302750980843142,0.16130353973275036,-0.5849359358045304,0.008973299132444882,0.4868132208308025,1.0514883986885757,0.28317745157062496,-0.14113263917856647,-0.0742995940688559,-0.8176888758667625,-1.0469083922469762,0.42005689886404923,-0.7056222942784811
0.2504363689806484,-0.42675654602546903,-0.4377734870056187,0.2085167063942229,-0.7647609683487818,-0.209263318140116,-0.43545558738891277,-0.24583535590176114,0.2699924916386077,0.03649187620608051,-0.08413004633727489,0.5785491797030325,-0.3388069038401554,-0.14639063818289122,0.1422665637260422,-0.3402205949032175,0.34461355414622447,0.23589435758704083
